TRT-101501-MinMaxCalibration
images: 3c010204
/model.0/conv/Conv_output_0: 3f734d78
/model.0/act/Sigmoid_output_0: 3c010204
/model.0/act/Mul_output_0: 3f5c1944
/model.1/conv/Conv_output_0: 3fb512b9
/model.1/act/Sigmoid_output_0: 3c010204
/model.1/act/Mul_output_0: 3fa3eb27
/model.2/cv1/conv/Conv_output_0: 3f8d51f4
/model.2/cv1/act/Sigmoid_output_0: 3c010204
/model.2/cv1/act/Mul_output_0: 3f889200
/model.23/one2one_cv2.2/one2one_cv2.2.1/conv/Conv_output_0: 3d8da504
/model.23/one2one_cv3.2/one2one_cv3.2.1/one2one_cv3.2.1.0/act/Mul_output_0: 3ecf79f4
/model.23/one2one_cv3.1/one2one_cv3.1.1/one2one_cv3.1.1.1/act/Sigmoid_output_0: 3c010204
/model.23/TopK_output_0: 0
/model.23/Expand_4_output_0: 3e1d3a75
/model.23/one2one_cv3.2/one2one_cv3.2.0/one2one_cv3.2.0.0/act/Mul_output_0: 3ec7ed3e
/model.2/Split_output_0: 3f889200
/model.23/one2one_cv2.2/one2one_cv2.2.1/act/Sigmoid_output_0: 3c00f6df
/model.22/m.0/m.0.0/cv2/act/Sigmoid_output_0: 3c010204
/model.2/Split_output_1: 3ed90231
/model.2/m.0/cv1/conv/Conv_output_0: 3db53e10
/model.2/m.0/cv1/act/Sigmoid_output_0: 3c00cc65
/model.2/m.0/cv1/act/Mul_output_0: 3d4ec412
/model.2/m.0/cv2/conv/Conv_output_0: 3ee2b1af
/model.2/m.0/cv2/act/Sigmoid_output_0: 3c010204
/model.2/m.0/cv2/act/Mul_output_0: 3ecb0ea8
/model.2/m.0/Add_output_0: 3f0f2122
/model.2/Concat_output_0: 3f889200
/model.2/cv2/conv/Conv_output_0: 3f251dab
/model.2/cv2/act/Sigmoid_output_0: 3c010204
/model.2/cv2/act/Mul_output_0: 3ec1f0a3
/model.3/conv/Conv_output_0: 3e015c0f
/model.3/act/Sigmoid_output_0: 3c010203
/model.3/act/Mul_output_0: 3e00f362
/model.4/cv1/conv/Conv_output_0: 3dea2a03
/model.4/cv1/act/Sigmoid_output_0: 3c01013b
/model.4/cv1/act/Mul_output_0: 3dabaa43
/model.23/Reshape_11_output_0: 3e9f3e7d
/model.22/m.0/m.0.1/attn/MatMul_output_0: 4100d8c7
ONNXTRT_Broadcast_222_output: 3b810204
/model.22/cv1/conv/Conv_output_0: 3dccbe78
/model.23/one2one_cv3.2/one2one_cv3.2.0/one2one_cv3.2.0.0/act/Sigmoid_output_0: 3c010204
ONNXTRT_ShapeShuffle_220_output: 3c010204
/model.4/Split_output_0: 3dabaa43
/model.23/Reshape_14_output_0: 3e9f3e7d
/model.23/one2one_cv3.2/one2one_cv3.2.0/one2one_cv3.2.0.0/conv/Conv_output_0: 3ecadcef
/model.4/Split_output_1: 3d96d03a
/model.4/m.0/cv1/conv/Conv_output_0: 3da13e08
/model.4/m.0/cv1/act/Sigmoid_output_0: 3c00fbe1
/model.4/m.0/cv1/act/Mul_output_0: 3d8a715f
/model.4/m.0/cv2/conv/Conv_output_0: 3de50223
/model.4/m.0/cv2/act/Sigmoid_output_0: 3c0101eb
/model.4/m.0/cv2/act/Mul_output_0: 3dcce150
/model.4/m.0/Add_output_0: 3df4005a
/model.4/Concat_output_0: 3df4005a
/model.4/cv2/conv/Conv_output_0: 3dd8dd53
/model.4/cv2/act/Sigmoid_output_0: 3c0101dc
/model.4/cv2/act/Mul_output_0: 3dc5d7e9
/model.5/conv/Conv_output_0: 3de66ef2
/model.5/act/Sigmoid_output_0: 3c0101f7
/model.5/act/Mul_output_0: 3dd7c318
/model.6/cv1/conv/Conv_output_0: 3e25e98c
/model.6/cv1/act/Sigmoid_output_0: 3c010204
/model.6/cv1/act/Mul_output_0: 3e25e98c
/model.22/cv2/conv/Conv_output_0: 3e4ca2c4
/model.22/Concat_output_0: 3e384fc5
/model.22/cv2/act/Sigmoid_output_0: 3c010204
/model.22/m.0/m.0.1/Add_1_output_0: 3e384fc5
/model.22/cv2/act/Mul_output_0: 3e4ca2c4
/model.23/Split_output_0: 40e1ba34
/model.6/Split_output_0: 3e047f24
/model.23/Unsqueeze_13_output_0: 3e1d3a75
/model.23/one2one_cv2.1/one2one_cv2.1.2/Conv_output_0: 3dbee03b
/model.6/Split_output_1: 3e25e98c
/model.6/m.0/cv1/conv/Conv_output_0: 3dd50cb8
/model.6/m.0/cv2/conv/Conv_output_0: 3e2a0722
/model.6/m.0/cv1/act/Sigmoid_output_0: 3c0101f5
/model.6/m.0/cv2/act/Sigmoid_output_0: 3c0101f4
/model.6/m.0/cv1/act/Mul_output_0: 3dd50c9f
/model.6/m.0/cv2/act/Mul_output_0: 3dd4e60a
/model.6/m.0/m/m.0/cv1/conv/Conv_output_0: 3ddb35ab
/model.6/m.0/m/m.0/cv1/act/Sigmoid_output_0: 3c00ff65
/model.6/m.0/m/m.0/cv1/act/Mul_output_0: 3d983ea1
/model.6/m.0/m/m.0/cv2/conv/Conv_output_0: 3de0ee57
/model.6/m.0/m/m.0/cv2/act/Sigmoid_output_0: 3c0101fd
/model.6/m.0/m/m.0/cv2/act/Mul_output_0: 3de0ee4b
/model.6/m.0/m/m.0/Add_output_0: 3e0ff69d
/model.6/m.0/m/m.1/cv1/conv/Conv_output_0: 3dbefca1
/model.6/m.0/m/m.1/cv1/act/Sigmoid_output_0: 3c010177
/model.6/m.0/m/m.1/cv1/act/Mul_output_0: 3db17483
/model.6/m.0/m/m.1/cv2/conv/Conv_output_0: 3e2d8d0f
/model.6/m.0/m/m.1/cv2/act/Sigmoid_output_0: 3c010204
/model.6/m.0/m/m.1/cv2/act/Mul_output_0: 3e2d8d0f
/model.6/m.0/m/m.1/Add_output_0: 3e58bc36
/model.6/m.0/Concat_output_0: 3e58bc36
/model.6/m.0/cv3/conv/Conv_output_0: 3e598f54
/model.6/m.0/cv3/act/Sigmoid_output_0: 3c010204
/model.6/m.0/cv3/act/Mul_output_0: 3e598f54
/model.6/Concat_output_0: 3e598f54
/model.6/cv2/conv/Conv_output_0: 3e293824
/model.6/cv2/act/Sigmoid_output_0: 3c010204
/model.6/cv2/act/Mul_output_0: 3e293824
/model.7/conv/Conv_output_0: 3e2097ec
/model.7/act/Sigmoid_output_0: 3c010204
/model.7/act/Mul_output_0: 3e172c1f
/model.8/cv1/conv/Conv_output_0: 3e239171
/model.8/cv1/act/Sigmoid_output_0: 3c010204
/model.8/cv1/act/Mul_output_0: 3e239171
/model.23/one2one_cv3.2/one2one_cv3.2.1/one2one_cv3.2.1.0/act/Sigmoid_output_0: 3c010204
/model.23/one2one_cv3.1/one2one_cv3.1.1/one2one_cv3.1.1.0/act/Sigmoid_output_0: 3c010204
/model.23/Unsqueeze_15_output_0: 3f204081
/model.23/one2one_cv2.2/one2one_cv2.2.0/act/Sigmoid_output_0: 3c00fd52
/model.23/Transpose_1_output_0: 3e810204
/model.22/m.0/m.0.1/ffn/ffn.1/conv/Conv_output_0: 3d727b9d
/model.8/Split_output_0: 3e239171
/model.23/one2one_cv2.2/one2one_cv2.2.0/conv/Conv_output_0: 3da30905
/model.22/m.0/m.0.1/ffn/ffn.0/act/Mul_output_0: 3decd34d
/model.8/Split_output_1: 3e11b59a
/model.8/m.0/cv1/conv/Conv_output_0: 3df7e967
/model.8/m.0/cv2/conv/Conv_output_0: 3e50c8d9
/model.8/m.0/cv1/act/Sigmoid_output_0: 3c0101fd
/model.8/m.0/cv2/act/Sigmoid_output_0: 3c00ecb1
/model.8/m.0/cv1/act/Mul_output_0: 3de21afe
/model.8/m.0/cv2/act/Mul_output_0: 3d6cbabf
/model.8/m.0/m/m.0/cv1/conv/Conv_output_0: 3dda1ee8
/model.8/m.0/m/m.0/cv1/act/Sigmoid_output_0: 3c0101f4
/model.8/m.0/m/m.0/cv1/act/Mul_output_0: 3dd49a12
/model.8/m.0/m/m.0/cv2/conv/Conv_output_0: 3e10f791
/model.8/m.0/m/m.0/cv2/act/Sigmoid_output_0: 3c010204
/model.8/m.0/m/m.0/cv2/act/Mul_output_0: 3e10f791
/model.8/m.0/m/m.0/Add_output_0: 3e335803
/model.8/m.0/m/m.1/cv1/conv/Conv_output_0: 3e1145f9
/model.8/m.0/m/m.1/cv1/act/Sigmoid_output_0: 3c010204
/model.8/m.0/m/m.1/cv1/act/Mul_output_0: 3e1145f9
/model.8/m.0/m/m.1/cv2/conv/Conv_output_0: 3e9412d9
/model.8/m.0/m/m.1/cv2/act/Sigmoid_output_0: 3c010204
/model.8/m.0/m/m.1/cv2/act/Mul_output_0: 3e2a8ef6
/model.8/m.0/m/m.1/Add_output_0: 3e5e55f4
/model.8/m.0/Concat_output_0: 3e5e55f4
/model.8/m.0/cv3/conv/Conv_output_0: 3e1ef4dc
/model.8/m.0/cv3/act/Sigmoid_output_0: 3c010204
/model.8/m.0/cv3/act/Mul_output_0: 3e1ef4dc
/model.8/Concat_output_0: 3e239171
/model.8/cv2/conv/Conv_output_0: 3e081fb8
/model.8/cv2/act/Sigmoid_output_0: 3c010202
/model.8/cv2/act/Mul_output_0: 3df5e8e3
/model.9/cv1/conv/Conv_output_0: 3e188abd
/model.9/m/MaxPool_output_0: 3e188abd
/model.9/m_1/MaxPool_output_0: 3e188abd
/model.9/m_2/MaxPool_output_0: 3e188abd
/model.9/Concat_output_0: 3e188abd
/model.9/cv2/conv/Conv_output_0: 3e1ad3ed
/model.9/cv2/act/Sigmoid_output_0: 3c0101fc
/model.9/cv2/act/Mul_output_0: 3ddf1a4b
/model.9/Add_output_0: 3e2064a3
/model.10/cv1/conv/Conv_output_0: 3e785e8c
/model.10/cv1/act/Sigmoid_output_0: 3c010204
/model.10/cv1/act/Mul_output_0: 3e3988ef
/model.23/Transpose_2_output_0: 40e1ba34
/model.23/Reshape_1_output_0: 3dbee03b
/model.22/m.0/m.0.1/Add_output_0: 3e33b25b
/model.23/Sigmoid_output_0: 3bfa93ad
/model.10/Split_output_0: 3e06e4f5
/model.23/one2one_cv3.2/one2one_cv3.2.0/one2one_cv3.2.0.1/act/Sigmoid_output_0: 3c010204
/model.23/one2one_cv3.1/one2one_cv3.1.0/one2one_cv3.1.0.1/conv/Conv_output_0: 3e661749
/model.22/m.0/m.0.1/attn/proj/conv/Conv_output_0: 3d956245
/model.10/Split_output_1: 3e3988ef
/model.23/ReduceMax_output_0: 3bfa93ad
/model.10/m/m.0/attn/qkv/conv/Conv_output_0: 3e2829f4
/model.23/Concat_3_output_0: 3df9e144
/model.23/Cast_9_output_0: 0
/model.23/one2one_cv3.2/one2one_cv3.2.0/one2one_cv3.2.0.1/act/Mul_output_0: 3e01f26d
/model.22/m.0/m.0.1/attn/pe/conv/Conv_output_0: 3df6c2b1
ONNXTRT_Broadcast_224_output: 3b810204
/model.22/m.0/m.0.1/attn/Reshape_2_output_0: 3d9bfc61
/model.23/one2one_cv3.1/one2one_cv3.1.0/one2one_cv3.1.0.1/act/Sigmoid_output_0: 3c010204
ONNXTRT_Broadcast_304_output: 3ab671d7
tmp_refittable_weight_1_output: 3e810204
/model.22/m.0/m.0.1/attn/Reshape_1_output_0: 3d41a7a9
/model.23/one2one_cv2.1/one2one_cv2.1.1/act/Mul_output_0: 3d4e96b3
/model.22/m.0/m.0.1/attn/Transpose_1_output_0: 3c010204
/model.22/m.0/m.0.1/attn/Transpose_output_0: 3d862ac6
/model.10/m/m.0/attn/Reshape_output_0: 3e2829f4
/model.22/m.0/m.0.1/attn/Split_output_2: 3d9bfc61
/model.23/Unsqueeze_20_output_0: 3bfa93ad
/model.23/Expand_3_output_0: 3e9f3e7d
/model.22/m.0/m.0.1/attn/Split_output_1: 3e00d9e6
/model.23/Reshape_4_output_0: 4019e6cf
/model.23/Concat_26_output_0: 40e1ba34
/model.10/m/m.0/attn/Split_output_0: 3d82992e
tmp_refittable_weight_0_output: 3e010204
/model.22/m.0/m.0.1/attn/Split_output_0: 3d862ac6
ONNXTRT_Broadcast_330_output: 3b810204
/model.10/m/m.0/attn/Split_output_1: 3db5e18b
/model.23/Slice_1_output_0: 3df9e144
/model.23/one2one_cv2.2/one2one_cv2.2.0/act/Mul_output_0: 3d8ebfc7
/model.10/m/m.0/attn/Split_output_2: 3e2829f4
/model.10/m/m.0/attn/Transpose_output_0: 3d82992e
/model.10/m/m.0/attn/Reshape_2_output_0: 3e2829f4
/model.10/m/m.0/attn/MatMul_output_0: 3fdefc28
/model.10/m/m.0/attn/pe/conv/Conv_output_0: 3ddf62d6
/model.10/m/m.0/attn/Constant_6_output_0_output: 3ab671d7
ONNXTRT_Broadcast_output: 3ab671d7
/model.10/m/m.0/attn/Mul_1_output_0: 3e9dac98
/model.10/m/m.0/attn/Softmax_output: 3bb305c6
/model.10/m/m.0/attn/Softmax_output_0: 3bb305c6
/model.23/one2one_cv2.2/one2one_cv2.2.2/Conv_output_0: 3df9e144
/model.10/m/m.0/attn/Transpose_1_output_0: 3bb305c6
/model.10/m/m.0/attn/MatMul_1_output_0: 3e18f401
/model.10/m/m.0/attn/Reshape_1_output_0: 3e18f401
/model.10/m/m.0/attn/Add_output_0: 3e28d1e9
/model.10/m/m.0/attn/proj/conv/Conv_output_0: 3de0c132
/model.10/m/m.0/Add_output_0: 3e50e00f
/model.10/m/m.0/ffn/ffn.0/conv/Conv_output_0: 3dc130b8
/model.10/m/m.0/ffn/ffn.0/act/Sigmoid_output_0: 3c0101cf
/model.10/m/m.0/ffn/ffn.0/act/Mul_output_0: 3dc13069
/model.10/m/m.0/ffn/ffn.1/conv/Conv_output_0: 3dafd0fc
/model.10/m/m.0/Add_1_output_0: 3e4e0365
/model.10/Concat_output_0: 3e4e0365
/model.10/cv2/conv/Conv_output_0: 3e00a2ee
/model.10/cv2/act/Sigmoid_output_0: 3c010203
/model.10/cv2/act/Mul_output_0: 3e00a2ed
/model.11/Resize_output_0: 3e00a2ed
/model.12/Concat_output_0: 3e293824
/model.13/cv1/conv/Conv_output_0: 3e03863f
/model.13/cv1/act/Sigmoid_output_0: 3c0101fe
/model.13/cv1/act/Mul_output_0: 3de40585
/model.22/m.0/m.0.1/attn/MatMul_1_output_0: 3d41a7a9
/model.22/m.0/m.0.1/ffn/ffn.0/act/Sigmoid_output_0: 3c010201
/model.22/m.0/m.0.0/cv2/act/Mul_output_0: 3e1ed30d
ONNXTRT_Broadcast_445_output: 3e810204
/model.23/Concat_7_output_0: 4019e6cf
/model.22/m.0/m.0.1/attn/qkv/conv/Conv_output_0: 3e00d9e6
/model.13/Split_output_0: 3dcfa712
/model.23/GatherElements_1_output_0: 40d3036b
/model.23/TopK_1_output_0: 3bfa93ad
/model.22/m.0/m.0.0/Add_output_0: 3e2b8c4f
/model.13/Split_output_1: 3de40585
/model.13/m.0/cv1/conv/Conv_output_0: 3dbfcc3e
/model.13/m.0/cv2/conv/Conv_output_0: 3e234a63
/model.13/m.0/cv1/act/Sigmoid_output_0: 3c0101cb
/model.13/m.0/cv2/act/Sigmoid_output_0: 3c00adc2
/model.13/m.0/cv1/act/Mul_output_0: 3dbfcbe9
/model.13/m.0/cv2/act/Mul_output_0: 3d4001c6
/model.13/m.0/m/m.0/cv1/conv/Conv_output_0: 3df53b6d
/model.13/m.0/m/m.0/cv1/act/Sigmoid_output_0: 3c010202
/model.13/m.0/m/m.0/cv1/act/Mul_output_0: 3df53b68
/model.13/m.0/m/m.0/cv2/conv/Conv_output_0: 3e33fa82
/model.13/m.0/m/m.0/cv2/act/Sigmoid_output_0: 3c010204
/model.13/m.0/m/m.0/cv2/act/Mul_output_0: 3e33fa82
/model.13/m.0/m/m.0/Add_output_0: 3e541a31
/model.13/m.0/m/m.1/cv1/conv/Conv_output_0: 3e206b48
/model.13/m.0/m/m.1/cv1/act/Sigmoid_output_0: 3c0101fe
/model.13/m.0/m/m.1/cv1/act/Mul_output_0: 3de3b6aa
/model.13/m.0/m/m.1/cv2/conv/Conv_output_0: 3e25318f
/model.13/m.0/m/m.1/cv2/act/Sigmoid_output_0: 3c010204
/model.13/m.0/m/m.1/cv2/act/Mul_output_0: 3e25318f
/model.13/m.0/m/m.1/Add_output_0: 3e70443a
/model.13/m.0/Concat_output_0: 3e70443a
/model.13/m.0/cv3/conv/Conv_output_0: 3e25998b
/model.13/m.0/cv3/act/Sigmoid_output_0: 3c010204
/model.13/m.0/cv3/act/Mul_output_0: 3e25998b
/model.13/Concat_output_0: 3e25998b
/model.13/cv2/conv/Conv_output_0: 3deda87d
/model.13/cv2/act/Sigmoid_output_0: 3c0101e5
/model.13/cv2/act/Mul_output_0: 3dc9e9ba
/model.14/Resize_output_0: 3dc9e9ba
/model.15/Concat_output_0: 3dc9e9ba
/model.16/cv1/conv/Conv_output_0: 3dd99849
/model.16/cv1/act/Sigmoid_output_0: 3c00fb0d
/model.16/cv1/act/Mul_output_0: 3d88783f
/model.22/m.0/m.0.1/attn/Mul_1_output_0: 3fb63784
/model.23/Concat_16_output_0: 3e9f3e7d
/model.22/m.0/m.0.0/cv2/conv/Conv_output_0: 3e1ed30d
/model.23/Unsqueeze_9_output_0: 3e9f3e7d
/model.23/one2one_cv3.1/one2one_cv3.1.2/Conv_output_0: 4019e6cf
output0: 40d3036b
/model.16/Split_output_0: 3d88783f
/model.22/m.0/m.0.0/cv1/conv/Conv_output_0: 3de39734
/model.23/Unsqueeze_10_output_0: 3e9f3e7d
/model.22/m.0/m.0.0/cv1/act/Mul_output_0: 3de39729
/model.16/Split_output_1: 3d8714ae
/model.16/m.0/cv1/conv/Conv_output_0: 3d09bc5d
/model.16/m.0/cv2/conv/Conv_output_0: 3dc43438
/model.16/m.0/cv1/act/Sigmoid_output_0: 3bfd210b
/model.16/m.0/cv2/act/Sigmoid_output_0: 3c00fd89
/model.16/m.0/cv1/act/Mul_output_0: 3cf9cb79
/model.16/m.0/cv2/act/Mul_output_0: 3d8f8b31
/model.16/m.0/m/m.0/cv1/conv/Conv_output_0: 3dc8123d
/model.16/m.0/m/m.0/cv1/act/Sigmoid_output_0: 3c0101e2
/model.16/m.0/m/m.0/cv1/act/Mul_output_0: 3dc81208
/model.16/m.0/m/m.0/cv2/conv/Conv_output_0: 3df5a6bd
/model.16/m.0/m/m.0/cv2/act/Sigmoid_output_0: 3c010202
/model.16/m.0/m/m.0/cv2/act/Mul_output_0: 3df5a6b9
/model.16/m.0/m/m.0/Add_output_0: 3df268ba
/model.16/m.0/m/m.1/cv1/conv/Conv_output_0: 3db6cd25
/model.16/m.0/m/m.1/cv1/act/Sigmoid_output_0: 3c010093
/model.16/m.0/m/m.1/cv1/act/Mul_output_0: 3da1e1bd
/model.16/m.0/m/m.1/cv2/conv/Conv_output_0: 3e69330e
/model.16/m.0/m/m.1/cv2/act/Sigmoid_output_0: 3c010204
/model.16/m.0/m/m.1/cv2/act/Mul_output_0: 3e69330e
/model.16/m.0/m/m.1/Add_output_0: 3e84a7d7
/model.16/m.0/Concat_output_0: 3e84a7d7
/model.16/m.0/cv3/conv/Conv_output_0: 3e2bd68c
/model.16/m.0/cv3/act/Sigmoid_output_0: 3c010204
/model.16/m.0/cv3/act/Mul_output_0: 3e2bd68c
/model.16/Concat_output_0: 3e2bd68c
/model.16/cv2/conv/Conv_output_0: 3e921e1f
/model.16/cv2/act/Sigmoid_output_0: 3c0101fd
/model.16/cv2/act/Mul_output_0: 3de27a2c
/model.17/conv/Conv_output_0: 3dea3d59
/model.22/m.0/m.0.1/attn/Reshape_output_0: 3e00d9e6
/model.23/ConstantOfShape_2_output_0: 3e810204
/model.23/one2one_cv2.0/one2one_cv2.0.0/conv/Conv_output_0: 3e28a0ad
/model.23/one2one_cv3.0/one2one_cv3.0.0/one2one_cv3.0.0.0/conv/Conv_output_0: 3e874713
/model.17/act/Sigmoid_output_0: 3c010200
/model.23/one2one_cv2.0/one2one_cv2.0.0/act/Sigmoid_output_0: 3c010204
/model.23/one2one_cv3.0/one2one_cv3.0.0/one2one_cv3.0.0.0/act/Sigmoid_output_0: 3c010204
/model.23/one2one_cv3.1/one2one_cv3.1.1/one2one_cv3.1.1.1/conv/Conv_output_0: 3f8bd769
/model.23/Reshape_15_output_0: 3e9f3e7d
/model.17/act/Mul_output_0: 3dea3d52
/model.23/one2one_cv2.0/one2one_cv2.0.0/act/Mul_output_0: 3e1ca6d1
/model.23/one2one_cv3.1/one2one_cv3.1.1/one2one_cv3.1.1.1/act/Mul_output_0: 3f4c359f
/model.23/one2one_cv3.0/one2one_cv3.0.0/one2one_cv3.0.0.0/act/Mul_output_0: 3e874713
/model.23/Sub_output_0: 3f2073d1
/model.23/Concat_24_output_0: 3e810204
/model.18/Concat_output_0: 3dea3d52
/model.23/one2one_cv2.0/one2one_cv2.0.1/conv/Conv_output_0: 3e12f9d8
/model.23/one2one_cv3.2/one2one_cv3.2.1/one2one_cv3.2.1.0/conv/Conv_output_0: 3ecf79f4
/model.22/m.0/m.0.1/attn/Softmax_output_0: 3c010204
/model.23/ConstantOfShape_1_output_0: 3e010204
/model.23/one2one_cv3.0/one2one_cv3.0.0/one2one_cv3.0.0.1/conv/Conv_output_0: 3e4ad40d
/model.23/Reshape_19_output_0: 3e1d3a75
/model.23/Range_3_output_0: 3e9d3a75
/model.23/Constant_15_output_0_output: 0
/model.23/Constant_16_output_0_output: 3c010204
ONNXTRT_ShapeShuffle_334_output: 3e810204
/model.23/one2one_cv3.1/one2one_cv3.1.1/one2one_cv3.1.1.0/conv/Conv_output_0: 3eb16dd9
/model.23/Reshape_13_output_0: 3e9f3e7d
/model.23/Reshape_18_output_0: 3e1d3a75
/model.23/Slice_output_0: 3dadf298
/model.23/one2one_cv2.2/one2one_cv2.2.1/act/Mul_output_0: 3d80dc86
/model.23/one2one_cv3.1/one2one_cv3.1.0/one2one_cv3.1.0.1/act/Mul_output_0: 3e661749
/model.23/Range_output_0: 3f1f3e7d
ONNXTRT_ShapeShuffle_131_output: 3c010204
/model.23/Range_4_output_0: 3e193265
/model.22/Split_output_0: 3dccbe50
/model.23/Split_output_1: 3bfa93ad
/model.23/Flatten_output_0: 3bfa93ad
/model.23/Range_1_output_0: 3f1f3e7d
ONNXTRT_ShapeShuffle_141_output: 3c010204
ONNXTRT_ShapeShuffle_328_output: 3c010204
/model.19/cv1/conv/Conv_output_0: 3e0c57f7
/model.23/one2one_cv2.0/one2one_cv2.0.1/act/Sigmoid_output_0: 3c00dace
/model.23/one2one_cv3.0/one2one_cv3.0.0/one2one_cv3.0.0.1/act/Sigmoid_output_0: 3c010204
/model.23/Constant_17_output_0_output: 3b810204
ONNXTRT_Broadcast_143_output: 3b810204
/model.23/Reshape_7_output_0: 3f204081
ONNXTRT_Broadcast_145_output: 3b810204
/model.23/Reshape_6_output_0: 3f204081
/model.22/m.0/m.0.1/attn/Softmax_output: 3c010204
/model.19/cv1/act/Sigmoid_output_0: 3c010204
/model.23/one2one_cv2.0/one2one_cv2.0.1/act/Mul_output_0: 3d58f512
/model.23/one2one_cv3.0/one2one_cv3.0.0/one2one_cv3.0.0.1/act/Mul_output_0: 3e4ad40d
tmp_refittable_weight_output: 3d810204
ONNXTRT_ShapeShuffle_147_output: 3d810204
/model.23/ConstantOfShape_output_0: 3d810204
ONNXTRT_ShapeShuffle_210_output: 3c010204
/model.23/one2one_cv3.2/one2one_cv3.2.1/one2one_cv3.2.1.1/act/Sigmoid_output_0: 3c010204
/model.23/Concat_21_output_0: 3e1d3a75
/model.23/Expand_5_output_0: 3e1d3a75
/model.23/Reshape_8_output_0: 3f204081
/model.23/Reshape_9_output_0: 3f204081
/model.19/cv1/act/Mul_output_0: 3e0c57f7
/model.23/one2one_cv2.0/one2one_cv2.0.2/Conv_output_0: 3d95ae0e
/model.23/one2one_cv3.0/one2one_cv3.0.1/one2one_cv3.0.1.0/conv/Conv_output_0: 3f73eb12
/model.23/Unsqueeze_12_output_0: 3e1d3a75
/model.23/GatherElements_output_0: 3bfa93ad
/model.23/one2one_cv3.1/one2one_cv3.1.1/one2one_cv3.1.1.0/act/Mul_output_0: 3eb16dd9
/model.23/one2one_cv3.2/one2one_cv3.2.0/one2one_cv3.2.0.1/conv/Conv_output_0: 3e01f26d
/model.23/Reshape_12_output_0: 3e9f3e7d
/model.19/Split_output_0: 3dbb2ea1
/model.23/one2one_cv2.1/one2one_cv2.1.1/act/Sigmoid_output_0: 3c00cc1a
/model.23/Mul_5_output_0: 40e1ba34
/model.19/Split_output_1: 3e0c57f7
/model.23/Reshape_output_0: 3d95ae0e
/model.23/one2one_cv3.0/one2one_cv3.0.1/one2one_cv3.0.1.0/act/Sigmoid_output_0: 3c010204
/model.22/m.0/m.0.1/attn/Add_output_0: 3de746d1
/model.23/Reshape_20_output_0: 3e1d3a75
/model.23/Concat_25_output_0: 3f24b25a
ONNXTRT_ShapeShuffle_318_output: 3c010204
/model.23/Reshape_2_output_0: 3df9e144
/model.22/cv1/act/Mul_output_0: 3dccbe50
/model.23/Reshape_5_output_0: 3eed37b4
/model.23/one2one_cv3.2/one2one_cv3.2.1/one2one_cv3.2.1.1/conv/Conv_output_0: 3ed94246
ONNXTRT_ShapeShuffle_226_output: 3e010204
/model.23/Reshape_16_output_0: 3e1d3a75
/model.22/cv1/act/Sigmoid_output_0: 3c0101ea
ONNXTRT_Broadcast_332_output: 3b810204
/model.23/Expand_output_0: 3f204081
/model.23/Add_7_output_0: 3f24b25a
/model.22/m.0/m.0.0/cv1/act/Sigmoid_output_0: 3c0101fe
/model.23/Expand_2_output_0: 3e9f3e7d
/model.22/Split_output_1: 3d9847b3
/model.22/m.0/m.0.1/ffn/ffn.0/conv/Conv_output_0: 3e1bfa91
/model.23/one2one_cv3.2/one2one_cv3.2.2/Conv_output_0: 3eed37b4
/model.23/Range_2_output_0: 3e9d3a75
/model.23/Transpose_output_0: 3f204081
/model.23/one2one_cv2.1/one2one_cv2.1.1/conv/Conv_output_0: 3de76a12
/model.23/Expand_1_output_0: 3f204081
/model.19/m.0/cv1/conv/Conv_output_0: 3d3ff353
/model.19/m.0/cv2/conv/Conv_output_0: 3e78767c
/model.23/one2one_cv3.0/one2one_cv3.0.1/one2one_cv3.0.1.0/act/Mul_output_0: 3f580e8b
/model.23/Unsqueeze_6_output_0: 3f204081
/model.23/Unsqueeze_7_output_0: 3f204081
/model.19/m.0/cv1/act/Sigmoid_output_0: 3c006d82
/model.19/m.0/cv2/act/Sigmoid_output_0: 3c00ff88
/model.23/one2one_cv3.0/one2one_cv3.0.1/one2one_cv3.0.1.1/conv/Conv_output_0: 3ecca002
/model.23/Concat_11_output_0: 3f204081
/model.19/m.0/cv1/act/Mul_output_0: 3d2d5f77
/model.19/m.0/cv2/act/Mul_output_0: 3d99141f
/model.23/one2one_cv3.0/one2one_cv3.0.1/one2one_cv3.0.1.1/act/Sigmoid_output_0: 3c010204
/model.23/Reshape_10_output_0: 3f204081
/model.19/m.0/m/m.0/cv1/conv/Conv_output_0: 3dca2e9f
/model.23/one2one_cv3.0/one2one_cv3.0.1/one2one_cv3.0.1.1/act/Mul_output_0: 3ecca002
/model.19/m.0/m/m.0/cv1/act/Sigmoid_output_0: 3c00ffd5
/model.23/one2one_cv3.0/one2one_cv3.0.2/Conv_output_0: 3f1249ee
/model.19/m.0/m/m.0/cv1/act/Mul_output_0: 3d9b1a48
/model.23/Reshape_3_output_0: 3f1249ee
/model.19/m.0/m/m.0/cv2/conv/Conv_output_0: 3e01154e
/model.19/m.0/m/m.0/cv2/act/Sigmoid_output_0: 3c010204
/model.19/m.0/m/m.0/cv2/act/Mul_output_0: 3e01154e
/model.19/m.0/m/m.0/Add_output_0: 3e078cd3
/model.19/m.0/m/m.1/cv1/conv/Conv_output_0: 3dc57700
/model.19/m.0/m/m.1/cv1/act/Sigmoid_output_0: 3c0101b1
/model.19/m.0/m/m.1/cv1/act/Mul_output_0: 3dba00a4
/model.19/m.0/m/m.1/cv2/conv/Conv_output_0: 3e87c936
/model.19/m.0/m/m.1/cv2/act/Sigmoid_output_0: 3c010204
/model.19/m.0/m/m.1/cv2/act/Mul_output_0: 3e87c936
/model.19/m.0/m/m.1/Add_output_0: 3ea8e18d
/model.19/m.0/Concat_output_0: 3ea8e18d
/model.19/m.0/cv3/conv/Conv_output_0: 3e6fc090
/model.19/m.0/cv3/act/Sigmoid_output_0: 3c010200
/model.19/m.0/cv3/act/Mul_output_0: 3de96c35
/model.19/Concat_output_0: 3e0c57f7
/model.19/cv2/conv/Conv_output_0: 3e4bbc77
/model.19/cv2/act/Sigmoid_output_0: 3c010201
/model.19/cv2/act/Mul_output_0: 3df2a616
/model.20/conv/Conv_output_0: 3d9fc88f
/model.23/one2one_cv2.1/one2one_cv2.1.0/conv/Conv_output_0: 3e0eb6c1
/model.23/one2one_cv3.1/one2one_cv3.1.0/one2one_cv3.1.0.0/conv/Conv_output_0: 3ea37695
/model.23/one2one_cv3.2/one2one_cv3.2.1/one2one_cv3.2.1.1/act/Mul_output_0: 3e868553
/model.20/act/Sigmoid_output_0: 3c010060
/model.23/one2one_cv2.1/one2one_cv2.1.0/act/Sigmoid_output_0: 3c010204
/model.23/one2one_cv3.1/one2one_cv3.1.0/one2one_cv3.1.0.0/act/Sigmoid_output_0: 3c010204
/model.23/Reshape_17_output_0: 3e1d3a75
/model.20/act/Mul_output_0: 3d9fc687
/model.23/one2one_cv2.1/one2one_cv2.1.0/act/Mul_output_0: 3e0eb6c1
/model.23/one2one_cv3.1/one2one_cv3.1.0/one2one_cv3.1.0.0/act/Mul_output_0: 3ea37695
/model.23/Concat_23_output_0: 3f204081
/model.23/Range_5_output_0: 3e193265
/model.21/Concat_output_0: 3e00a2ed
